{
  "version": "1.0",
  "truncation": null,
  "padding": null,
  "added_tokens": [
    {
      "id": 0,
      "content": "[PAD]",
      "single_word": false,
      "lstrip": false,
      "rstrip": false,
      "normalized": false,
      "special": true
    },
    {
      "id": 1,
      "content": "[UNK]",
      "single_word": false,
      "lstrip": false,
      "rstrip": false,
      "normalized": false,
      "special": true
    },
    {
      "id": 2,
      "content": "[CLS]",
      "single_word": false,
      "lstrip": false,
      "rstrip": false,
      "normalized": false,
      "special": true
    },
    {
      "id": 3,
      "content": "[SEP]",
      "single_word": false,
      "lstrip": false,
      "rstrip": false,
      "normalized": false,
      "special": true
    },
    {
      "id": 4,
      "content": "[MASK]",
      "single_word": false,
      "lstrip": false,
      "rstrip": false,
      "normalized": false,
      "special": true
    }
  ],
  "normalizer": {
    "type": "BertNormalizer",
    "clean_text": true,
    "handle_chinese_chars": true,
    "strip_accents": null,
    "lowercase": true
  },
  "pre_tokenizer": {
    "type": "BertPreTokenizer"
  },
  "post_processor": {
    "type": "TemplateProcessing",
    "single": [
      {
        "SpecialToken": {
          "id": "[CLS]",
          "type_id": 0
        }
      },
      {
        "Sequence": {
          "id": "A",
          "type_id": 0
        }
      },
      {
        "SpecialToken": {
          "id": "[SEP]",
          "type_id": 0
        }
      }
    ],
    "pair": [
      {
        "SpecialToken": {
          "id": "[CLS]",
          "type_id": 0
        }
      },
      {
        "Sequence": {
          "id": "A",
          "type_id": 0
        }
      },
      {
        "SpecialToken": {
          "id": "[SEP]",
          "type_id": 0
        }
      },
      {
        "Sequence": {
          "id": "B",
          "type_id": 1
        }
      },
      {
        "SpecialToken": {
          "id": "[SEP]",
          "type_id": 1
        }
      }
    ],
    "special_tokens": {
      "[CLS]": {
        "id": "[CLS]",
        "ids": [
          2
        ],
        "tokens": [
          "[CLS]"
        ]
      },
      "[SEP]": {
        "id": "[SEP]",
        "ids": [
          3
        ],
        "tokens": [
          "[SEP]"
        ]
      }
    }
  },
  "decoder": {
    "type": "WordPiece",
    "prefix": "##",
    "cleanup": true
  },
  "model": {
    "type": "WordPiece",
    "unk_token": "[UNK]",
    "continuing_subword_prefix": "##",
    "max_input_chars_per_word": 100,
    "vocab": {
      "[PAD]": 0,
      "[UNK]": 1,
      "[CLS]": 2,
      "[SEP]": 3,
      "[MASK]": 4,
      "\"": 5,
      "#": 6,
      "$": 7,
      "&": 8,
      "'": 9,
      "(": 10,
      ")": 11,
      "+": 12,
      ",": 13,
      "-": 14,
      ".": 15,
      "/": 16,
      "0": 17,
      "1": 18,
      "2": 19,
      "3": 20,
      "4": 21,
      "5": 22,
      "6": 23,
      "7": 24,
      "8": 25,
      "9": 26,
      ":": 27,
      ";": 28,
      "=": 29,
      ">": 30,
      "?": 31,
      "@": 32,
      "[": 33,
      "\\": 34,
      "]": 35,
      "^": 36,
      "_": 37,
      "a": 38,
      "b": 39,
      "c": 40,
      "d": 41,
      "e": 42,
      "f": 43,
      "g": 44,
      "h": 45,
      "i": 46,
      "j": 47,
      "k": 48,
      "l": 49,
      "m": 50,
      "n": 51,
      "o": 52,
      "p": 53,
      "q": 54,
      "r": 55,
      "s": 56,
      "t": 57,
      "u": 58,
      "v": 59,
      "w": 60,
      "x": 61,
      "y": 62,
      "z": 63,
      "|": 64,
      "~": 65,
      "»": 66,
      "–": 67,
      "—": 68,
      "’": 69,
      "“": 70,
      "”": 71,
      "…": 72,
      "##i": 73,
      "##c": 74,
      "##a": 75,
      "##l": 76,
      "##r": 77,
      "##e": 78,
      "##f": 79,
      "##n": 80,
      "##s": 81,
      "##m": 82,
      "##b": 83,
      "##u": 84,
      "##t": 85,
      "##o": 86,
      "##q": 87,
      "##v": 88,
      "##g": 89,
      "##d": 90,
      "##y": 91,
      "##p": 92,
      "##h": 93,
      "##z": 94,
      "##w": 95,
      "##k": 96,
      "##x": 97,
      "##2": 98,
      "##j": 99,
      "##5": 100,
      "##1": 101,
      "##0": 102,
      "##3": 103,
      "##6": 104,
      "##4": 105,
      "##8": 106,
      "##7": 107,
      "##9": 108,
      "##on": 109,
      "##es": 110,
      "##at": 111,
      "##er": 112,
      "##or": 113,
      "##in": 114,
      "##ou": 115,
      "th": 116,
      "##an": 117,
      "##ing": 118,
      "##ion": 119,
      "##ic": 120,
      "in": 121,
      "an": 122,
      "the": 123,
      "you": 124,
      "##st": 125,
      "##en": 126,
      "##it": 127,
      "##et": 128,
      "##ed": 129,
      "to": 130,
      "and": 131,
      "##ma": 132,
      "##al": 133,
      "##re": 134,
      "ama": 135,
      "##zon": 136,
      "amazon": 137,
      "##ec": 138,
      "##ws": 139,
      "##ation": 140,
      "##ro": 141,
      "for": 142,
      "##pl": 143,
      "##ar": 144,
      "aws": 145,
      "re": 146,
      "##ces": 147,
      "##ent": 148,
      "of": 149,
      "##as": 150,
      "##am": 151,
      "##om": 152,
      "##il": 153,
      "##ac": 154,
      "##ab": 155,
      "us": 156,
      "##ag": 157,
      "con": 158,
      "##el": 159,
      "your": 160,
      "##ut": 161,
      "st": 162,
      "##id": 163,
      "##ect": 164,
      "ac": 165,
      "dat": 166,
      "##ig": 167,
      "##ur": 168,
      "pro": 169,
      "##le": 170,
      "##is": 171,
      "##erv": 172,
      "##ate": 173,
      "##age": 174,
      "##ce": 175,
      "ap": 176,
      "can": 177,
      "serv": 178,
      "##ow": 179,
      "is": 180,
      "##uc": 181,
      "##ers": 182,
      "com": 183,
      "##ol": 184,
      "##ith": 185,
      "or": 186,
      "##ly": 187,
      "with": 188,
      "##ore": 189,
      "on": 190,
      "that": 191,
      "ec": 192,
      "##ity": 193,
      "##od": 194,
      "res": 195,
      "de": 196,
      "inst": 197,
      "##cess": 198,
      "##ir": 199,
      "##ri": 200,
      "##ds": 201,
      "ec2": 202,
      "s3": 203,
      "en": 204,
      "ex": 205,
      "man": 206,
      "##im": 207,
      "##ts": 208,
      "##ter": 209,
      "##for": 210,
      "##ions": 211,
      "servic": 212,
      "##form": 213,
      "instan": 214,
      "##ad": 215,
      "##ment": 216,
      "##ork": 217,
      "use": 218,
      "wh": 219,
      "cl": 220,
      "##ess": 221,
      "se": 222,
      "datab": 223,
      "##if": 224,
      "databas": 225,
      "as": 226,
      "##iz": 227,
      "##ist": 228,
      "prov": 229,
      "##qu": 230,
      "ch": 231,
      "op": 232,
      "tr": 233,
      "ad": 234,
      "##ve": 235,
      "##ication": 236,
      "see": 237,
      "access": 238,
      "##un": 239,
      "##our": 240,
      "##ot": 241,
      "##ject": 242,
      "appl": 243,
      "##ch": 244,
      "ob": 245,
      "##ost": 246,
      "are": 247,
      "##ul": 248,
      "##pc": 249,
      "more": 250,
      "##and": 251,
      "al": 252,
      "##ket": 253,
      "object": 254,
      "##ust": 255,
      "requ": 256,
      "cont": 257,
      "data": 258,
      "##formation": 259,
      "##ay": 260,
      "##oc": 261,
      "buc": 262,
      "##ide": 263,
      "##ain": 264,
      "##out": 265,
      "bucket": 266,
      "database": 267,
      "application": 268,
      "##em": 269,
      "it": 270,
      "vpc": 271,
      "##est": 272,
      "resour": 273,
      "rds": 274,
      "##ail": 275,
      "##ure": 276,
      "##up": 277,
      "information": 278,
      "##etw": 279,
      "le": 280,
      "using": 281,
      "stor": 282,
      "##ap": 283,
      "##ple": 284,
      "at": 285,
      "##able": 286,
      "cre": 287,
      "be": 288,
      "##vel": 289,
      "##ff": 290,
      "##os": 291,
      "##igh": 292,
      "manage": 293,
      "service": 294,
      "resources": 295,
      "ab": 296,
      "##op": 297,
      "aut": 298,
      "##gr": 299,
      "##ies": 300,
      "gu": 301,
      "##rib": 302,
      "##etwork": 303,
      "sc": 304,
      "##ver": 305,
      "##ach": 306,
      "add": 307,
      "by": 308,
      "ne": 309,
      "un": 310,
      "##ub": 311,
      "##yn": 312,
      "##art": 313,
      "instances": 314,
      "##por": 315,
      "comp": 316,
      "cons": 317,
      "clou": 318,
      "ke": 319,
      "up": 320,
      "sec": 321,
      "comm": 322,
      "##ffic": 323,
      "this": 324,
      "provid": 325,
      "pr": 326,
      "cloud": 327,
      "##ine": 328,
      "inter": 329,
      "##ign": 330,
      "instance": 331,
      "##tion": 332,
      "get": 333,
      "##um": 334,
      "##th": 335,
      "we": 336,
      "##ast": 337,
      "storage": 338,
      "per": 339,
      "##us": 340,
      "##ks": 341,
      "##odb": 342,
      "services": 343,
      "##low": 344,
      "##ynam": 345,
      "key": 346,
      "##affic": 347,
      "##ally": 348,
      "about": 349,
      "##oun": 350,
      "how": 351,
      "##ility": 352,
      "##ack": 353,
      "##ynamodb": 354,
      "mod": 355,
      "##ak": 356,
      "##lo": 357,
      "##fer": 358,
      "api": 359,
      "oper": 360,
      "guide": 361,
      "ar": 362,
      "qu": 363,
      "##ror": 364,
      "##ress": 365,
      "reg": 366,
      "applications": 367,
      "db": 368,
      "fro": 369,
      "sp": 370,
      "des": 371,
      "##tions": 372,
      "##yp": 373,
      "start": 374,
      "##ures": 375,
      "from": 376,
      "##ial": 377,
      "##net": 378,
      "##ated": 379,
      "##plo": 380,
      "##ill": 381,
      "scal": 382,
      "av": 383,
      "lam": 384,
      "work": 385,
      "fe": 386,
      "network": 387,
      "##end": 388,
      "##ard": 389,
      "create": 390,
      "##ib": 391,
      "##bd": 392,
      "##ang": 393,
      "##ance": 394,
      "inc": 395,
      "provides": 396,
      "lambd": 397,
      "cost": 398,
      "##fig": 399,
      "##port": 400,
      "lambda": 401,
      "dynamodb": 402,
      "ha": 403,
      "so": 404,
      "##urity": 405,
      "manag": 406,
      "contain": 407,
      "bas": 408,
      "cust": 409,
      "fol": 410,
      "ip": 411,
      "set": 412,
      "sup": 413,
      "##iv": 414,
      "##ive": 415,
      "##ace": 416,
      "objects": 417,
      "avail": 418,
      "##rit": 419,
      "##ql": 420,
      "config": 421,
      "##elet": 422,
      "management": 423,
      "custom": 424,
      "follow": 425,
      "##are": 426,
      "##nect": 427,
      "cho": 428,
      "hel": 429,
      "if": 430,
      "##ual": 431,
      "##ant": 432,
      "##ability": 433,
      "devel": 434,
      "lo": 435,
      "##ire": 436,
      "deplo": 437,
      "expl": 438,
      "following": 439,
      "help": 440,
      "develop": 441,
      "delet": 442,
      "suc": 443,
      "##ame": 444,
      "##ample": 445,
      "##act": 446,
      "comput": 447,
      "started": 448,
      "deploy": 449,
      "##ates": 450,
      "##arg": 451,
      "sh": 452,
      "##way": 453,
      "##ich": 454,
      "##ations": 455,
      "##irror": 456,
      "which": 457,
      "##face": 458,
      "##ud": 459,
      "##ating": 460,
      "##ize": 461,
      "traffic": 462,
      "##ult": 463,
      "have": 464,
      "det": 465,
      "##all": 466,
      "##arn": 467,
      "##abl": 468,
      "learn": 469,
      "address": 470,
      "feat": 471,
      "int": 472,
      "connect": 473,
      "server": 474,
      "##ify": 475,
      "reques": 476,
      "bu": 477,
      "back": 478,
      "##ics": 479,
      "##ific": 480,
      "##ribut": 481,
      "web": 482,
      "requests": 483,
      "pol": 484,
      "run": 485,
      "##oin": 486,
      "such": 487,
      "cap": 488,
      "mak": 489,
      "pri": 490,
      "vers": 491,
      "##ere": 492,
      "##rol": 493,
      "user": 494,
      "when": 495,
      "need": 496,
      "choos": 497,
      "aur": 498,
      "mon": 499,
      "ow": 500,
      "rec": 501,
      "tim": 502,
      "##mis": 503,
      "process": 504,
      "example": 505,
      "control": 506,
      "spec": 507,
      "buil": 508,
      "red": 509,
      "sign": 510,
      "##ss": 511,
      "##ora": 512,
      "ind": 513,
      "##ational": 514,
      "read": 515,
      "acc": 516,
      "auth": 517,
      "aurora": 518,
      "id": 519,
      "##ep": 520,
      "##so": 521,
      "##tp": 522,
      "##tim": 523,
      "##ision": 524,
      "all": 525,
      "autom": 526,
      "arch": 527,
      "support": 528,
      "features": 529,
      "polic": 530,
      "own": 531,
      "cod": 532,
      "el": 533,
      "ht": 534,
      "sd": 535,
      "typ": 536,
      "##crib": 537,
      "##lud": 538,
      "##ole": 539,
      "##ware": 540,
      "databases": 541,
      "perform": 542,
      "includ": 543,
      "each": 544,
      "fun": 545,
      "gr": 546,
      "vir": 547,
      "##ting": 548,
      "##ans": 549,
      "##ically": 550,
      "rel": 551,
      "##ments": 552,
      "cas": 553,
      "ret": 554,
      "##ft": 555,
      "##ind": 556,
      "rest": 557,
      "att": 558,
      "high": 559,
      "pre": 560,
      "##ron": 561,
      "##tual": 562,
      "##oup": 563,
      "##ateway": 564,
      "explore": 565,
      "func": 566,
      "virtual": 567,
      "er": 568,
      "table": 569,
      "##ering": 570,
      "##ence": 571,
      "##ition": 572,
      "##ary": 573,
      "trans": 574,
      "console": 575,
      "describ": 576,
      "ipv": 577,
      "code": 578,
      "bill": 579,
      "list": 580,
      "mig": 581,
      "pat": 582,
      "##ys": 583,
      "anal": 584,
      "tool": 585,
      "##ari": 586,
      "security": 587,
      "interface": 588,
      "priv": 589,
      "accoun": 590,
      "not": 591,
      "oth": 592,
      "pub": 593,
      "##der": 594,
      "##ous": 595,
      "##itor": 596,
      "##ile": 597,
      "cli": 598,
      "##ight": 599,
      "pric": 600,
      "model": 601,
      "availability": 602,
      "migr": 603,
      "best": 604,
      "im": 605,
      "over": 606,
      "writ": 607,
      "##yst": 608,
      "##itect": 609,
      "##ized": 610,
      "region": 611,
      "monitor": 612,
      "architect": 613,
      "http": 614,
      "publ": 615,
      "sim": 616,
      "##ows": 617,
      "request": 618,
      "scale": 619,
      "customer": 620,
      "log": 621,
      "version": 622,
      "other": 623,
      "##ern": 624,
      "##erm": 625,
      "any": 626,
      "##its": 627,
      "##acity": 628,
      "also": 629,
      "##ock": 630,
      "addresses": 631,
      "time": 632,
      "specific": 633,
      "performance": 634,
      "private": 635,
      "public": 636,
      "ev": 637,
      "ml": 638,
      "nam": 639,
      "poin": 640,
      "tut": 641,
      "##gh": 642,
      "##ese": 643,
      "there": 644,
      "these": 645,
      "provision": 646,
      "optim": 647,
      "am": 648,
      "min": 649,
      "mirror": 650,
      "tas": 651,
      "zon": 652,
      "##cy": 653,
      "##less": 654,
      "##pon": 655,
      "##orial": 656,
      "refer": 657,
      "stand": 658,
      "##uct": 659,
      "item": 660,
      "level": 661,
      "secon": 662,
      "command": 663,
      "quer": 664,
      "soft": 665,
      "capacity": 666,
      "##miss": 667,
      "ipv4": 668,
      "pricing": 669,
      "##ystem": 670,
      "tutorial": 671,
      "20": 672,
      "hand": 673,
      "mult": 674,
      "post": 675,
      "system": 676,
      "val": 677,
      "##gan": 678,
      "##ory": 679,
      "repl": 680,
      "##ass": 681,
      "organ": 682,
      "one": 683,
      "respon": 684,
      "container": 685,
      "based": 686,
      "compute": 687,
      "build": 688,
      "sdks": 689,
      "tools": 690,
      "tasks": 691,
      "software": 692,
      "dis": 693,
      "sub": 694,
      "##ip": 695,
      "##ier": 696,
      "##ct": 697,
      "##ex": 698,
      "##ines": 699,
      "inf": 700,
      "##ener": 701,
      "##ell": 702,
      "acl": 703,
      "eng": 704,
      "end": 705,
      "##ization": 706,
      "under": 707,
      "configur": 708,
      "##ables": 709,
      "ident": 710,
      "policies": 711,
      "reference": 712,
      "multi": 713,
      "respons": 714,
      "gener": 715,
      "met": 716,
      "wind": 717,
      "##av": 718,
      "##ry": 719,
      "##eering": 720,
      "##ough": 721,
      "##ands": 722,
      "##ical": 723,
      "def": 724,
      "provide": 725,
      "consist": 726,
      "##astic": 727,
      "##ible": 728,
      "configure": 729,
      "elastic": 730,
      "analy": 731,
      "ful": 732,
      "lin": 733,
      "line": 734,
      "##vir": 735,
      "##ong": 736,
      "##inter": 737,
      "##ices": 738,
      "##ection": 739,
      "compl": 740,
      "envir": 741,
      "ass": 742,
      "adv": 743,
      "buckets": 744,
      "new": 745,
      "regions": 746,
      "design": 747,
      "managed": 748,
      "choose": 749,
      "attribut": 750,
      "windows": 751,
      "out": 752,
      "##ix": 753,
      "off": 754,
      "str": 755,
      "exist": 756,
      "charg": 757,
      "##ights": 758,
      "backup": 759,
      "authent": 760,
      "function": 761,
      "account": 762,
      "monitoring": 763,
      "standard": 764,
      "environ": 765,
      "ai": 766,
      "fre": 767,
      "has": 768,
      "ma": 769,
      "par": 770,
      "pow": 771,
      "way": 772,
      "##ci": 773,
      "##ency": 774,
      "##ross": 775,
      "##ome": 776,
      "##ely": 777,
      "app": 778,
      "##olum": 779,
      "dep": 780,
      "require": 781,
      "##group": 782,
      "##ange": 783,
      "##uritygroup": 784,
      "available": 785,
      "redu": 786,
      "relational": 787,
      "second": 788,
      "acls": 789,
      "go": 790,
      "mys": 791,
      "no": 792,
      "size": 793,
      "tak": 794,
      "volum": 795,
      "##ie": 796,
      "##ruct": 797,
      "##ead": 798,
      "##mirror": 799,
      "##ber": 800,
      "##duc": 801,
      "##atically": 802,
      "##ens": 803,
      "##ersh": 804,
      "what": 805,
      "##oth": 806,
      "pract": 807,
      "worklo": 808,
      "query": 809,
      "##missions": 810,
      "infr": 811,
      "existing": 812,
      "do": 813,
      "gateway": 814,
      "lang": 815,
      "same": 816,
      "tables": 817,
      "##les": 818,
      "##rough": 819,
      "inv": 820,
      "##ecuritygroup": 821,
      "##ents": 822,
      "prot": 823,
      "##ports": 824,
      "##astruct": 825,
      "permissions": 826,
      "##afficmirror": 827,
      "costs": 828,
      "delete": 829,
      "into": 830,
      "serverless": 831,
      "type": 832,
      "billing": 833,
      "multiple": 834,
      "mysql": 835,
      "infrastruct": 836,
      "cent": 837,
      "dist": 838,
      "la": 839,
      "part": 840,
      "vari": 841,
      "will": 842,
      "##ia": 843,
      "##rafficmirror": 844,
      "##bs": 845,
      "##ative": 846,
      "##ert": 847,
      "through": 848,
      "##eng": 849,
      "##omm": 850,
      "across": 851,
      "##own": 852,
      "exp": 853,
      "clust": 854,
      "##very": 855,
      "upd": 856,
      "internet": 857,
      "operations": 858,
      "detail": 859,
      "connection": 860,
      "choosing": 861,
      "processing": 862,
      "including": 863,
      "write": 864,
      "##iew": 865,
      "langu": 866,
      "infrastructure": 867,
      "cr": 868,
      "cal": 869,
      "dif": 870,
      "doc": 871,
      "dire": 872,
      "loc": 873,
      "might": 874,
      "pl": 875,
      "sage": 876,
      "sol": 877,
      "##ault": 878,
      "##ling": 879,
      "##lock": 880,
      "##fix": 881,
      "##sh": 882,
      "##ue": 883,
      "##esql": 884,
      "##stand": 885,
      "store": 886,
      "actions": 887,
      "progr": 888,
      "##ateg": 889,
      "only": 890,
      "options": 891,
      "##unch": 892,
      "vpcs": 893,
      "addition": 894,
      "consid": 895,
      "##use": 896,
      "setting": 897,
      "developers": 898,
      "make": 899,
      "recomm": 900,
      "understand": 901,
      "launch": 902,
      "betw": 903,
      "dec": 904,
      "fail": 905,
      "ov": 906,
      "##cul": 907,
      "##aces": 908,
      "##ns": 909,
      "##oot": 910,
      "##ker": 911,
      "##atch": 912,
      "them": 913,
      "top": 914,
      "##maker": 915,
      "##amm": 916,
      "conc": 917,
      "within": 918,
      "enc": 919,
      "many": 920,
      "##imum": 921,
      "##oci": 922,
      "##gresql": 923,
      "##ound": 924,
      "##ferent": 925,
      "signat": 926,
      "index": 927,
      "models": 928,
      "simple": 929,
      "point": 930,
      "postgresql": 931,
      "offers": 932,
      "environment": 933,
      "reduce": 934,
      "calcul": 935,
      "sagemaker": 936,
      "programm": 937,
      "recommend": 938,
      "bec": 939,
      "bro": 940,
      "crit": 941,
      "est": 942,
      "ebs": 943,
      "lat": 944,
      "main": 945,
      "num": 946,
      "put": 947,
      "pay": 948,
      "peering": 949,
      "tem": 950,
      "##een": 951,
      "##now": 952,
      "##ux": 953,
      "##gateway": 954,
      "##ator": 955,
      "##icated": 956,
      "their": 957,
      "##ities": 958,
      "##ily": 959,
      "dem": 960,
      "resource": 961,
      "modify": 962,
      "operating": 963,
      "quot": 964,
      "scaling": 965,
      "containers": 966,
      "making": 967,
      "author": 968,
      "automatically": 969,
      "supported": 970,
      "cases": 971,
      "migration": 972,
      "architecture": 973,
      "zones": 974,
      "engine": 975,
      "linux": 976,
      "compli": 977,
      "requirements": 978,
      "volumes": 979,
      "direct": 980,
      "between": 981,
      "ag": 982,
      "bus": 983,
      "down": 984,
      "eas": 985,
      "ima": 986,
      "iam": 987,
      "##ads": 988,
      "##list": 989,
      "##ram": 990,
      "##egr": 991,
      "##vpc": 992,
      "##ata": 993,
      "##icate": 994,
      "ins": 995,
      "##aries": 996,
      "uses": 997,
      "##idr": 998,
      "act": 999,
      "##erview": 1000,
      "##cep": 1001,
      "without": 1002,
      "class": 1003,
      "stored": 1004,
      "basic": 1005,
      "determ": 1006,
      "case": 1007,
      "error": 1008,
      "tutorials": 1009,
      "fully": 1010,
      "max": 1011,
      "different": 1012,
      "overview": 1013,
      "topics": 1014,
      "number": 1015,
      "busin": 1016,
      "both": 1017,
      "call": 1018,
      "fle": 1019,
      "its": 1020,
      "lim": 1021,
      "lib": 1022,
      "most": 1023,
      "mach": 1024,
      "pack": 1025,
      "pci": 1026,
      "term": 1027,
      "##ient": 1028,
      "##con": 1029,
      "##cidr": 1030,
      "##ear": 1031,
      "##ning": 1032,
      "##min": 1033,
      "##bles": 1034,
      "##poin": 1035,
      "##her": 1036,
      "##ick": 1037,
      "##enetwork": 1038,
      "##etrafficmirror": 1039,
      "##urr": 1040,
      "servers": 1041,
      "ent": 1042,
      "##adata": 1043,
      "admin": 1044,
      "requir": 1045,
      "##aph": 1046,
      "##ose": 1047,
      "guid": 1048,
      "secure": 1049,
      "common": 1050,
      "getting": 1051,
      "works": 1052,
      "##anges": 1053,
      "managing": 1054,
      "supports": 1055,
      "helps": 1056,
      "development": 1057,
      "computing": 1058,
      "include": 1059,
      "group": 1060,
      "retur": 1061,
      "versioning": 1062,
      "minut": 1063,
      "subnet": 1064,
      "endpoin": 1065,
      "metadata": 1066,
      "##interface": 1067,
      "secondary": 1068,
      "practices": 1069,
      "language": 1070,
      "##fixlist": 1071,
      "consider": 1072,
      "imag": 1073,
      "business": 1074,
      "af": 1075,
      "bal": 1076,
      "co": 1077,
      "cert": 1078,
      "fir": 1079,
      "glo": 1080,
      "host": 1081,
      "hard": 1082,
      "low": 1083,
      "long": 1084,
      "leng": 1085,
      "me": 1086,
      "mo": 1087,
      "must": 1088,
      "mem": 1089,
      "name": 1090,
      "ph": 1091,
      "tw": 1092,
      "tag": 1093,
      "ur": 1094,
      "##ced": 1095,
      "##ause": 1096,
      "##ration": 1097,
      "##raries": 1098,
      "##ef": 1099,
      "##fore": 1100,
      "##ble": 1101,
      "##ument": 1102,
      "##esecuritygroup": 1103,
      "##atic": 1104,
      "##ets": 1105,
      "##edi": 1106,
      "##ream": 1107,
      "##ential": 1108,
      "##ilter": 1109,
      "usage": 1110,
      "##rip": 1111,
      "ens": 1112,
      "##ource": 1113,
      "creat": 1114,
      "commands": 1115,
      "##abled": 1116,
      "needs": 1117,
      "##mises": 1118,
      "policy": 1119,
      "retri": 1120,
      "premises": 1121,
      "transfer": 1122,
      "amoun": 1123,
      "handling": 1124,
      "organiz": 1125,
      "identify": 1126,
      "default": 1127,
      "analyz": 1128,
      "strateg": 1129,
      "backups": 1130,
      "free": 1131,
      "##duction": 1132,
      "distribut": 1133,
      "maint": 1134,
      "libraries": 1135,
      "administ": 1136,
      "but": 1137,
      "block": 1138,
      "di": 1139,
      "fit": 1140,
      "fam": 1141,
      "fast": 1142,
      "file": 1143,
      "ic": 1144,
      "larg": 1145,
      "lights": 1146,
      "right": 1147,
      "range": 1148,
      "su": 1149,
      "sql": 1150,
      "section": 1151,
      "source": 1152,
      "##ik": 1153,
      "##iqu": 1154,
      "##bal": 1155,
      "##work": 1156,
      "##eria": 1157,
      "##refixlist": 1158,
      "##ech": 1159,
      "##amet": 1160,
      "##aged": 1161,
      "##idual": 1162,
      "proble": 1163,
      "install": 1164,
      "##ift": 1165,
      "##izing": 1166,
      "option": 1167,
      "##chron": 1168,
      "uniqu": 1169,
      "##ubnet": 1170,
      "keys": 1171,
      "##lows": 1172,
      "##ibility": 1173,
      "load": 1174,
      "deployment": 1175,
      "learning": 1176,
      "indiv": 1177,
      "types": 1178,
      "##ront": 1179,
      "functions": 1180,
      "patter": 1181,
      "migrate": 1182,
      "https": 1183,
      "mirroring": 1184,
      "200": 1185,
      "handle": 1186,
      "advant": 1187,
      "paramet": 1188,
      "powersh": 1189,
      "depend": 1190,
      "details": 1191,
      "cred": 1192,
      "document": 1193,
      "solut": 1194,
      "signature": 1195,
      "indexes": 1196,
      "criteria": 1197,
      "templ": 1198,
      "determine": 1199,
      "after": 1200,
      "first": 1201,
      "global": 1202,
      "hardware": 1203,
      "length": 1204,
      "memory": 1205,
      "two": 1206,
      "dur": 1207,
      "dri": 1208,
      "dss": 1209,
      "em": 1210,
      "fr": 1211,
      "giv": 1212,
      "mic": 1213,
      "os": 1214,
      "pur": 1215,
      "page": 1216,
      "rout": 1217,
      "sel": 1218,
      "some": 1219,
      "##ied": 1220,
      "##ving": 1221,
      "##ging": 1222,
      "##per": 1223,
      "##prefixlist": 1224,
      "##oubles": 1225,
      "thre": 1226,
      "##ances": 1227,
      "##ice": 1228,
      "they": 1229,
      "##ether": 1230,
      "used": 1231,
      "##agram": 1232,
      "step": 1233,
      "stron": 1234,
      "##ither": 1235,
      "instead": 1236,
      "char": 1237,
      "trust": 1238,
      "troubles": 1239,
      "##ching": 1240,
      "beh": 1241,
      "##ffect": 1242,
      "commun": 1243,
      "cloudformation": 1244,
      "modern": 1245,
      "##ype": 1246,
      "manages": 1247,
      "shar": 1248,
      "reco": 1249,
      "sdk": 1250,
      "patching": 1251,
      "simpl": 1252,
      "consistent": 1253,
      "analyt": 1254,
      "take": 1255,
      "workload": 1256,
      "compliance": 1257,
      "certific": 1258,
      "tags": 1259,
      "strategy": 1260,
      "diagram": 1261,
      "problem": 1262,
      "individual": 1263,
      "powershell": 1264,
      "strong": 1265,
      "10": 1266,
      "cle": 1267,
      "cop": 1268,
      "every": 1269,
      "either": 1270,
      "effect": 1271,
      "find": 1272,
      "found": 1273,
      "gre": 1274,
      "kb": 1275,
      "mac": 1276,
      "por": 1277,
      "pup": 1278,
      "sing": 1279,
      "want": 1280,
      "##sit": 1281,
      "##og": 1282,
      "##ok": 1283,
      "##gin": 1284,
      "##dynamodb": 1285,
      "##hend": 1286,
      "##hoot": 1287,
      "init": 1288,
      "##alu": 1289,
      "##ality": 1290,
      "##eck": 1291,
      "##roso": 1292,
      "##ples": 1293,
      "awsdynamodb": 1294,
      "concep": 1295,
      "stream": 1296,
      "##ident": 1297,
      "##ish": 1298,
      "where": 1299,
      "##ession": 1300,
      "##ified": 1301,
      "change": 1302,
      "##ules": 1303,
      "been": 1304,
      "before": 1305,
      "begin": 1306,
      "##vely": 1307,
      "##ynchron": 1308,
      "compon": 1309,
      "keep": 1310,
      "commit": 1311,
      "##fficient": 1312,
      "##log": 1313,
      "networking": 1314,
      "explain": 1315,
      "websit": 1316,
      "running": 1317,
      "built": 1318,
      "automate": 1319,
      "restore": 1320,
      "attach": 1321,
      "lists": 1322,
      "path": 1323,
      "accounts": 1324,
      "import": 1325,
      "names": 1326,
      "points": 1327,
      "provisioning": 1328,
      "optimize": 1329,
      "zone": 1330,
      "items": 1331,
      "value": 1332,
      "generative": 1333,
      "associ": 1334,
      "designed": 1335,
      "functionality": 1336,
      "center": 1337,
      "programming": 1338,
      "because": 1339,
      "demand": 1340,
      "maximum": 1341,
      "limit": 1342,
      "machine": 1343,
      "##urrent": 1344,
      "lightsail": 1345,
      "##works": 1346,
      "##agedprefixlist": 1347,
      "microso": 1348,
      "troubleshoot": 1349,
      "cp": 1350,
      "gro": 1351,
      "he": 1352,
      "head": 1353,
      "iv": 1354,
      "js": 1355,
      "lif": 1356,
      "now": 1357,
      "sn": 1358,
      "sample": 1359,
      "uplo": 1360,
      "year": 1361,
      "##ior": 1362,
      "##ively": 1363,
      "##cle": 1364,
      "##air": 1365,
      "##ld": 1366,
      "##ually": 1367,
      "##tr": 1368,
      "##te": 1369,
      "##to": 1370,
      "##vers": 1371,
      "##pro": 1372,
      "##put": 1373,
      "##peering": 1374,
      "##erout": 1375,
      "than": 1376,
      "##anc": 1377,
      "##anagedprefixlist": 1378,
      "then": 1379,
      "##ends": 1380,
      "##enari": 1381,
      "##reas": 1382,
      "##rehend": 1383,
      "##ash": 1384,
      "##acl": 1385,
      "##acle": 1386,
      "##els": 1387,
      "##ise": 1388,
      "apis": 1389,
      "isol": 1390,
      "comple": 1391,
      "orch": 1392,
      "oracle": 1393,
      "dev": 1394,
      "enable": 1395,
      "while": 1396,
      "scenari": 1397,
      "comprehend": 1398,
      "provided": 1399,
      "pred": 1400,
      "operational": 1401,
      "operator": 1402,
      "art": 1403,
      "##netgateway": 1404,
      "##arget": 1405,
      "intro": 1406,
      "versions": 1407,
      "signing": 1408,
      "ownersh": 1409,
      "highly": 1410,
      "event": 1411,
      "evalu": 1412,
      "optimized": 1413,
      "valid": 1414,
      "replication": 1415,
      "configuration": 1416,
      "responsible": 1417,
      "##internetgateway": 1418,
      "charges": 1419,
      "charged": 1420,
      "authentication": 1421,
      "power": 1422,
      "workloads": 1423,
      "updates": 1424,
      "decision": 1425,
      "broad": 1426,
      "latency": 1427,
      "flex": 1428,
      "package": 1429,
      "minutes": 1430,
      "balanc": 1431,
      "retrie": 1432,
      "organizational": 1433,
      "documentation": 1434,
      "frame": 1435,
      "select": 1436,
      "shared": 1437,
      "recovery": 1438,
      "analytics": 1439,
      "pupp": 1440,
      "microsoft": 1441,
      "br": 1442,
      "bin": 1443,
      "cm": 1444,
      "ded": 1445,
      "dash": 1446,
      "es": 1447,
      "ess": 1448,
      "foc": 1449,
      "il": 1450,
      "iz": 1451,
      "jav": 1452,
      "know": 1453,
      "lay": 1454,
      "pair": 1455,
      "ss": 1456,
      "tier": 1457,
      "ut": 1458,
      "ve": 1459,
      "vp": 1460,
      "ver": 1461,
      "vide": 1462,
      "##led": 1463,
      "##res": 1464,
      "##faces": 1465,
      "##ner": 1466,
      "##medi": 1467,
      "##ycle": 1468,
      "##post": 1469,
      "##ately": 1470,
      "##ination": 1471,
      "##ings": 1472,
      "##str": 1473,
      "##itep": 1474,
      "##ete": 1475,
      "##alk": 1476,
      "rem": 1477,
      "rev": 1478,
      "stat": 1479,
      "##ured": 1480,
      "prop": 1481,
      "iss": 1482,
      "comb": 1483,
      "enter": 1484,
      "##imin": 1485,
      "whether": 1486,
      "whitep": 1487,
      "sever": 1488,
      "changes": 1489,
      "apply": 1490,
      "content": 1491,
      "##ocol": 1492,
      "##ained": 1493,
      "##emus": 1494,
      "##estions": 1495,
      "##apsh": 1496,
      "##options": 1497,
      "operate": 1498,
      "quick": 1499,
      "questions": 1500,
      "few": 1501,
      "having": 1502,
      "##ivity": 1503,
      "deleted": 1504,
      "deployed": 1505,
      "##ways": 1506,
      "integr": 1507,
      "prima": 1508,
      "indust": 1509,
      "elimin": 1510,
      "grant": 1511,
      "describe": 1512,
      "describes": 1513,
      "immedi": 1514,
      "namemus": 1515,
      "provisioned": 1516,
      "optimization": 1517,
      "202": 1518,
      "systems": 1519,
      "organization": 1520,
      "disabled": 1521,
      "engines": 1522,
      "configurations": 1523,
      "responsibility": 1524,
      "general": 1525,
      "##avior": 1526,
      "consistency": 1527,
      "assign": 1528,
      "outpost": 1529,
      "appro": 1530,
      "does": 1531,
      "protect": 1532,
      "protocol": 1533,
      "various": 1534,
      "throughput": 1535,
      "cluster": 1536,
      "local": 1537,
      "additional": 1538,
      "settings": 1539,
      "estim": 1540,
      "directly": 1541,
      "classes": 1542,
      "errors": 1543,
      "##connect": 1544,
      "guidance": 1545,
      "return": 1546,
      "endpoints": 1547,
      "hosting": 1548,
      "meet": 1549,
      "amount": 1550,
      "analyze": 1551,
      "patterns": 1552,
      "advantage": 1553,
      "solutions": 1554,
      "templates": 1555,
      "behavior": 1556,
      "copy": 1557,
      "single": 1558,
      "concepts": 1559,
      "components": 1560,
      "snapsh": 1561,
      "upload": 1562,
      "##peeringconnect": 1563,
      "complex": 1564,
      "orchest": 1565,
      "ownership": 1566,
      "ben": 1567,
      "bed": 1568,
      "ca": 1569,
      "cor": 1570,
      "col": 1571,
      "cir": 1572,
      "card": 1573,
      "don": 1574,
      "et": 1575,
      "filter": 1576,
      "front": 1577,
      "gl": 1578,
      "iot": 1579,
      "oc": 1580,
      "ol": 1581,
      "sa": 1582,
      "send": 1583,
      "ti": 1584,
      "tun": 1585,
      "tex": 1586,
      "target": 1587,
      "##iar": 1588,
      "##ryp": 1589,
      "##ever": 1590,
      "##ful": 1591,
      "##not": 1592,
      "##serv": 1593,
      "##bo": 1594,
      "##ted": 1595,
      "##tribut": 1596,
      "##ger": 1597,
      "##dl": 1598,
      "##dress": 1599,
      "##writ": 1600,
      "##watch": 1601,
      "##attribut": 1602,
      "##ort": 1603,
      "thir": 1604,
      "anoth": 1605,
      "##ety": 1606,
      "##etable": 1607,
      "##ecycle": 1608,
      "reach": 1609,
      "##ilities": 1610,
      "##action": 1611,
      "users": 1612,
      "##ages": 1613,
      "##eld": 1614,
      "action": 1615,
      "cannot": 1616,
      "##ries": 1617,
      "enetwork": 1618,
      "##address": 1619,
      "##quent": 1620,
      "chall": 1621,
      "##und": 1622,
      "allow": 1623,
      "allows": 1624,
      "least": 1625,
      "##apers": 1626,
      "created": 1627,
      "creating": 1628,
      "being": 1629,
      "##graph": 1630,
      "unus": 1631,
      "pres": 1632,
      "cloudwatch": 1633,
      "interact": 1634,
      "interfaces": 1635,
      "however": 1636,
      "regul": 1637,
      "scalable": 1638,
      "working": 1639,
      "networks": 1640,
      "manager": 1641,
      "developer": 1642,
      "computer": 1643,
      "runtim": 1644,
      "makes": 1645,
      "times": 1646,
      "redsh": 1647,
      "owner": 1648,
      "graph": 1649,
      "retry": 1650,
      "##ysical": 1651,
      "impro": 1652,
      "overwrit": 1653,
      "logging": 1654,
      "minimum": 1655,
      "##mission": 1656,
      "##associ": 1657,
      "identity": 1658,
      "full": 1659,
      "links": 1660,
      "attribute": 1661,
      "attributes": 1662,
      "authenticate": 1663,
      "parall": 1664,
      "ways": 1665,
      "variety": 1666,
      "clusters": 1667,
      "plan": 1668,
      "understanding": 1669,
      "failure": 1670,
      "encryp": 1671,
      "quotas": 1672,
      "easier": 1673,
      "easily": 1674,
      "insights": 1675,
      "calls": 1676,
      "##enetworkacl": 1677,
      "groups": 1678,
      "image": 1679,
      "covers": 1680,
      "mob": 1681,
      "physical": 1682,
      "##entials": 1683,
      "maintain": 1684,
      "administration": 1685,
      "large": 1686,
      "unique": 1687,
      "##ubnetcidr": 1688,
      "credentials": 1689,
      "trusted": 1690,
      "diagrams": 1691,
      "foundation": 1692,
      "##ynchronous": 1693,
      "explains": 1694,
      "important": 1695,
      "cpu": 1696,
      "grow": 1697,
      "json": 1698,
      "lifecycle": 1699,
      "isolated": 1700,
      "operators": 1701,
      "introduction": 1702,
      "binary": 1703,
      "cmdl": 1704,
      "dedicated": 1705,
      "focus": 1706,
      "java": 1707,
      "video": 1708,
      "whitepapers": 1709,
      "several": 1710,
      "immediately": 1711,
      "namemusic": 1712,
      "outposts": 1713,
      "##attribute": 1714,
      "##addresses": 1715,
      "az": 1716,
      "aud": 1717,
      "bur": 1718,
      "band": 1719,
      "dest": 1720,
      "ef": 1721,
      "efficient": 1722,
      "fin": 1723,
      "fire": 1724,
      "hands": 1725,
      "jp": 1726,
      "less": 1727,
      "last": 1728,
      "lock": 1729,
      "lik": 1730,
      "mat": 1731,
      "mis": 1732,
      "mess": 1733,
      "nat": 1734,
      "net": 1735,
      "pd": 1736,
      "pac": 1737,
      "pot": 1738,
      "root": 1739,
      "ranges": 1740,
      "rules": 1741,
      "sit": 1742,
      "song": 1743,
      "sens": 1744,
      "session": 1745,
      "tech": 1746,
      "w2": 1747,
      "wide": 1748,
      "##ield": 1749,
      "##ck": 1750,
      "##cum": 1751,
      "##eo": 1752,
      "##filter": 1753,
      "##ml": 1754,
      "##ms": 1755,
      "##managedprefixlist": 1756,
      "##block": 1757,
      "##ug": 1758,
      "##ues": 1759,
      "##ule": 1760,
      "##tes": 1761,
      "##ob": 1762,
      "##ven": 1763,
      "##gac": 1764,
      "##ym": 1765,
      "##pose": 1766,
      "##xt": 1767,
      "##00": 1768,
      "##erc": 1769,
      "##ined": 1770,
      "##ould": 1771,
      "##main": 1772,
      "##read": 1773,
      "##rock": 1774,
      "reports": 1775,
      "##entory": 1776,
      "##ase": 1777,
      "##amples": 1778,
      "##oming": 1779,
      "##iliar": 1780,
      "##acier": 1781,
      "ack": 1782,
      "date": 1783,
      "project": 1784,
      "production": 1785,
      "serve": 1786,
      "##lying": 1787,
      "ecs": 1788,
      "deep": 1789,
      "exc": 1790,
      "examples": 1791,
      "train": 1792,
      "track": 1793,
      "accessing": 1794,
      "accessed": 1795,
      "appli": 1796,
      "observ": 1797,
      "alread": 1798,
      "##ays": 1799,
      "##ocate": 1800,
      "legac": 1801,
      "stores": 1802,
      "##ache": 1803,
      "added": 1804,
      "next": 1805,
      "unless": 1806,
      "##load": 1807,
      "##ression": 1808,
      "##ended": 1809,
      "increas": 1810,
      "contains": 1811,
      "base": 1812,
      "##ives": 1813,
      "success": 1814,
      "deployments": 1815,
      "show": 1816,
      "shows": 1817,
      "intell": 1818,
      "backends": 1819,
      "recor": 1820,
      "processes": 1821,
      "specify": 1822,
      "signed": 1823,
      "html": 1824,
      "related": 1825,
      "writes": 1826,
      "architectures": 1827,
      "events": 1828,
      "named": 1829,
      "queries": 1830,
      "values": 1831,
      "subs": 1832,
      "underlying": 1833,
      "complete": 1834,
      "outl": 1835,
      "depth": 1836,
      "going": 1837,
      "invol": 1838,
      "inventory": 1839,
      "partition": 1840,
      "expression": 1841,
      "update": 1842,
      "concern": 1843,
      "encod": 1844,
      "calculating": 1845,
      "brows": 1846,
      "##egress": 1847,
      "##vpcpeeringconnect": 1848,
      "##enetworkinterface": 1849,
      "requires": 1850,
      "required": 1851,
      "subnets": 1852,
      "images": 1853,
      "##efits": 1854,
      "familiar": 1855,
      "faster": 1856,
      "suit": 1857,
      "parameters": 1858,
      "purpose": 1859,
      "certificates": 1860,
      "attached": 1861,
      "troubleshooting": 1862,
      "predic": 1863,
      "frameworks": 1864,
      "dashbo": 1865,
      "vpn": 1866,
      "propert": 1867,
      "issue": 1868,
      "enterp": 1869,
      "quickly": 1870,
      "industry": 1871,
      "2023": 1872,
      "approach": 1873,
      "orchestration": 1874,
      "benefits": 1875,
      "bedrock": 1876,
      "circum": 1877,
      "glacier": 1878,
      "third": 1879,
      "another": 1880,
      "challeng": 1881,
      "redshift": 1882,
      "improve": 1883,
      "mobile": 1884,
      "400": 1885,
      "blog": 1886,
      "care": 1887,
      "categ": 1888,
      "current": 1889,
      "dr": 1890,
      "den": 1891,
      "dynam": 1892,
      "dock": 1893,
      "ed": 1894,
      "fil": 1895,
      "fac": 1896,
      "flow": 1897,
      "fits": 1898,
      "hour": 1899,
      "kines": 1900,
      "ll": 1901,
      "lic": 1902,
      "m6": 1903,
      "mer": 1904,
      "mad": 1905,
      "may": 1906,
      "mari": 1907,
      "match": 1908,
      "mech": 1909,
      "om": 1910,
      "our": 1911,
      "pi": 1912,
      "py": 1913,
      "ro": 1914,
      "r2": 1915,
      "r1": 1916,
      "rol": 1917,
      "rub": 1918,
      "ser": 1919,
      "siv": 1920,
      "tur": 1921,
      "test": 1922,
      "ub": 1923,
      "vet": 1924,
      "vog": 1925,
      "w1": 1926,
      "wor": 1927,
      "ware": 1928,
      "well": 1929,
      "yn": 1930,
      "##ian": 1931,
      "##iated": 1932,
      "##cp": 1933,
      "##cap": 1934,
      "##cies": 1935,
      "##crip": 1936,
      "##rat": 1937,
      "##rics": 1938,
      "##front": 1939,
      "##nical": 1940,
      "##sis": 1941,
      "##mit": 1942,
      "##bug": 1943,
      "##ten": 1944,
      "##tit": 1945,
      "##ves": 1946,
      "##gre": 1947,
      "##den": 1948,
      "##pect": 1949,
      "##wh": 1950,
      "##wall": 1951,
      "##jor": 1952,
      "##just": 1953,
      "##only": 1954,
      "##onym": 1955,
      "##atory": 1956,
      "##inct": 1957,
      "those": 1958,
      "##anst": 1959,
      "anonym": 1960,
      "##stances": 1961,
      "##ename": 1962,
      "##encies": 1963,
      "##itive": 1964,
      "##alf": 1965,
      "##alth": 1966,
      "form": 1967,
      "remain": 1968,
      "##acter": 1969,
      "##abilities": 1970,
      "star": 1971,
      "still": 1972,
      "datas": 1973,
      "##igger": 1974,
      "##uring": 1975,
      "produc": 1976,
      "##isions": 1977,
      "reserv": 1978,
      "debug": 1979,
      "enabled": 1980,
      "ext": 1981,
      "manually": 1982,
      "##tern": 1983,
      "who": 1984,
      "sep": 1985,
      "##izes": 1986,
      "check": 1987,
      "trad": 1988,
      "trigger": 1989,
      "adjust": 1990,
      "##otos": 1991,
      "areas": 1992,
      "alth": 1993,
      "altern": 1994,
      "contact": 1995,
      "storing": 1996,
      "beanst": 1997,
      "##ops": 1998,
      "auto": 1999,
      "scrip": 2000,
      "##vern": 2001,
      "never": 2002,
      "unit": 2003,
      "compar": 2004,
      "providing": 2005,
      "prin": 2006,
      "spik": 2007,
      "##ypto": 2008,
      "startup": 2009,
      "workf": 2010,
      "incoming": 2011,
      "soap": 2012,
      "customers": 2013,
      "customized": 2014,
      "choices": 2015,
      "look": 2016,
      "deletes": 2017,
      "deletetrafficmirror": 2018,
      "should": 2019,
      "detection": 2020,
      "feature": 2021,
      "connectivity": 2022,
      "backing": 2023,
      "runs": 2024,
      "capabilities": 2025,
      "month": 2026,
      "rece": 2027,
      "controls": 2028,
      "accident": 2029,
      "automatic": 2030,
      "archive": 2031,
      "typically": 2032,
      "includes": 2033,
      "reli": 2034,
      "prefer": 2035,
      "transform": 2036,
      "ipv6": 2037,
      "##ysis": 2038,
      "analysis": 2039,
      "toolk": 2040,
      "logs": 2041,
      "logic": 2042,
      "logically": 2043,
      "seconds": 2044,
      "replac": 2045,
      "organize": 2046,
      "building": 2047,
      "disc": 2048,
      "configured": 2049,
      "metrics": 2050,
      "attributename": 2051,
      "authenticated": 2052,
      "environments": 2053,
      "major": 2054,
      "govern": 2055,
      "takes": 2056,
      "practical": 2057,
      "##ecuritygroupr": 2058,
      "distinct": 2059,
      "party": 2060,
      "crypto": 2061,
      "locations": 2062,
      "failures": 2063,
      "concurrent": 2064,
      "calculate": 2065,
      "programmatically": 2066,
      "termin": 2067,
      "entire": 2068,
      "returns": 2069,
      "endpoint": 2070,
      "photos": 2071,
      "ensure": 2072,
      "createtrafficmirror": 2073,
      "distributed": 2074,
      "mainten": 2075,
      "administr": 2076,
      "family": 2077,
      "optionally": 2078,
      "parameter": 2079,
      "dependencies": 2080,
      "driven": 2081,
      "emr": 2082,
      "route": 2083,
      "character": 2084,
      "simplify": 2085,
      "strongly": 2086,
      "great": 2087,
      "commitment": 2088,
      "##logs": 2089,
      "website": 2090,
      "pathways": 2091,
      "health": 2092,
      "headers": 2093,
      "years": 2094,
      "##eroutetable": 2095,
      "scenario": 2096,
      "artist": 2097,
      "flexible": 2098,
      "puppy": 2099,
      "bring": 2100,
      "pairs": 2101,
      "utf": 2102,
      "##ledg": 2103,
      "##reserv": 2104,
      "eliminates": 2105,
      "estimates": 2106,
      "color": 2107,
      "tiers": 2108,
      "tuning": 2109,
      "unused": 2110,
      "regulatory": 2111,
      "runtimes": 2112,
      "parallel": 2113,
      "encryption": 2114,
      "destination": 2115,
      "firewall": 2116,
      "jpg": 2117,
      "like": 2118,
      "pdf": 2119,
      "packet": 2120,
      "songtit": 2121,
      "technical": 2122,
      "##object": 2123,
      "acknow": 2124,
      "observability": 2125,
      "already": 2126,
      "legacy": 2127,
      "intellig": 2128,
      "##vpcpeeringconnection": 2129,
      "enterpr": 2130,
      "circumstances": 2131,
      "##cpoptions": 2132,
      "60": 2133,
      "bel": 2134,
      "bot": 2135,
      "eu": 2136,
      "equ": 2137,
      "egr": 2138,
      "ff": 2139,
      "fet": 2140,
      "four": 2141,
      "fact": 2142,
      "farg": 2143,
      "fix": 2144,
      "fault": 2145,
      "gar": 2146,
      "geo": 2147,
      "hib": 2148,
      "home": 2149,
      "half": 2150,
      "ia": 2151,
      "iops": 2152,
      "kin": 2153,
      "kern": 2154,
      "kits": 2155,
      "lit": 2156,
      "lands": 2157,
      "lets": 2158,
      "mal": 2159,
      "mar": 2160,
      "mill": 2161,
      "non": 2162,
      "nec": 2163,
      "nos": 2164,
      "native": 2165,
      "od": 2166,
      "pet": 2167,
      "pers": 2168,
      "pos": 2169,
      "rap": 2170,
      "role": 2171,
      "sw": 2172,
      "spl": 2173,
      "sect": 2174,
      "sav": 2175,
      "sort": 2176,
      "tedi": 2177,
      "vast": 2178,
      "via": 2179,
      "win": 2180,
      "wel": 2181,
      "wiz": 2182,
      "west": 2183,
      "wern": 2184,
      "walk": 2185,
      "yam": 2186,
      "zer": 2187,
      "##ially": 2188,
      "##aut": 2189,
      "##len": 2190,
      "##lus": 2191,
      "##lights": 2192,
      "##ral": 2193,
      "##rup": 2194,
      "##rule": 2195,
      "##file": 2196,
      "##field": 2197,
      "##network": 2198,
      "##sion": 2199,
      "##trafficmirror": 2200,
      "##oing": 2201,
      "##ved": 2202,
      "##val": 2203,
      "##godb": 2204,
      "##going": 2205,
      "##delet": 2206,
      "##duct": 2207,
      "##yte": 2208,
      "##pe": 2209,
      "##paces": 2210,
      "##hip": 2211,
      "##hcpoptions": 2212,
      "##wid": 2213,
      "##kog": 2214,
      "##onom": 2215,
      "##atible": 2216,
      "##atgateway": 2217,
      "##erial": 2218,
      "##orized": 2219,
      "##int": 2220,
      "things": 2221,
      "##anis": 2222,
      "##ancy": 2223,
      "##anced": 2224,
      "##anian": 2225,
      "##icit": 2226,
      "##itate": 2227,
      "andro": 2228,
      "##alent": 2229,
      "##arly": 2230,
      "real": 2231,
      "rele": 2232,
      "rely": 2233,
      "report": 2234,
      "reuse": 2235,
      "rekog": 2236,
      "##entry": 2237,
      "##asub": 2238,
      "##aging": 2239,
      "##uty": 2240,
      "stop": 2241,
      "static": 2242,
      "##ected": 2243,
      "##ural": 2244,
      "proced": 2245,
      "product": 2246,
      "##isor": 2247,
      "apache": 2248,
      "order": 2249,
      "econom": 2250,
      "resem": 2251,
      "enables": 2252,
      "##imize": 2253,
      "##imizing": 2254,
      "##adb": 2255,
      "##ading": 2256,
      "why": 2257,
      "##ification": 2258,
      "ask": 2259,
      "asynchronous": 2260,
      "aspect": 2261,
      "provisions": 2262,
      "chap": 2263,
      "ops": 2264,
      "open": 2265,
      "try": 2266,
      "adop": 2267,
      "applies": 2268,
      "##chant": 2269,
      "##chase": 2270,
      "##ocrat": 2271,
      "##ember": 2272,
      "ate": 2273,
      "creates": 2274,
      "able": 2275,
      "abstr": 2276,
      "guard": 2277,
      "scan": 2278,
      "byte": 2279,
      "bytes": 2280,
      "und": 2281,
      "unass": 2282,
      "unaut": 2283,
      "compatible": 2284,
      "upfront": 2285,
      "provider": 2286,
      "cloudtr": 2287,
      "##ume": 2288,
      "##thon": 2289,
      "##lowlogs": 2290,
      "operation": 2291,
      "scalability": 2292,
      "incident": 2293,
      "basics": 2294,
      "setup": 2295,
      "##ivities": 2296,
      "customize": 2297,
      "choice": 2298,
      "##antly": 2299,
      "explicit": 2300,
      "developing": 2301,
      "##acters": 2302,
      "shell": 2303,
      "shift": 2304,
      "detach": 2305,
      "##abling": 2306,
      "##ablish": 2307,
      "connections": 2308,
      "capt": 2309,
      "mongodb": 2310,
      "specified": 2311,
      "redund": 2312,
      "ready": 2313,
      "##time": 2314,
      "codes": 2315,
      "##cribe": 2316,
      "highlights": 2317,
      "precon": 2318,
      "erout": 2319,
      "transmission": 2320,
      "describetrafficmirror": 2321,
      "codewh": 2322,
      "clients": 2323,
      "architectural": 2324,
      "even": 2325,
      "naming": 2326,
      "mirrored": 2327,
      "replicated": 2328,
      "replicate": 2329,
      "containerized": 2330,
      "disassoci": 2331,
      "submit": 2332,
      "response": 2333,
      "define": 2334,
      "advisor": 2335,
      "string": 2336,
      "charge": 2337,
      "frequent": 2338,
      "hash": 2339,
      "appear": 2340,
      "reduces": 2341,
      "volume": 2342,
      "gateways": 2343,
      "expected": 2344,
      "detailed": 2345,
      "languages": 2346,
      "concurr": 2347,
      "signatures": 2348,
      "calculator": 2349,
      "establish": 2350,
      "later": 2351,
      "payment": 2352,
      "democrat": 2353,
      "modifytrafficmirror": 2354,
      "quota": 2355,
      "authorized": 2356,
      "compliant": 2357,
      "again": 2358,
      "aggre": 2359,
      "downtime": 2360,
      "activities": 2361,
      "##cept": 2362,
      "called": 2363,
      "fleet": 2364,
      "guides": 2365,
      "minute": 2366,
      "longer": 2367,
      "move": 2368,
      "url": 2369,
      "ensuring": 2370,
      "amounts": 2371,
      "analyzer": 2372,
      "distribution": 2373,
      "sufficient": 2374,
      "uniquely": 2375,
      "2006": 2376,
      "2007": 2377,
      "dependent": 2378,
      "credit": 2379,
      "giving": 2380,
      "purchase": 2381,
      "##perer": 2382,
      "three": 2383,
      "characters": 2384,
      "communicate": 2385,
      "modernization": 2386,
      "certificate": 2387,
      "effective": 2388,
      "effectively": 2389,
      "ports": 2390,
      "initial": 2391,
      "initiated": 2392,
      "awsdynamodbdelet": 2393,
      "streaming": 2394,
      "beginner": 2395,
      "commitments": 2396,
      "websites": 2397,
      "associate": 2398,
      "##tract": 2399,
      "devices": 2400,
      "device": 2401,
      "evaluate": 2402,
      "evaluating": 2403,
      "validated": 2404,
      "updatesecuritygroupr": 2405,
      "balancing": 2406,
      "retrieve": 2407,
      "retrieval": 2408,
      "layer": 2409,
      "##strained": 2410,
      "status": 2411,
      "integration": 2412,
      "primary": 2413,
      "snapshot": 2414,
      "uploaded": 2415,
      "##graphically": 2416,
      "present": 2417,
      "retrying": 2418,
      "audit": 2419,
      "burden": 2420,
      "bandwid": 2421,
      "efficiently": 2422,
      "finish": 2423,
      "material": 2424,
      "message": 2425,
      "sensitive": 2426,
      "exclus": 2427,
      "appliances": 2428,
      "successful": 2429,
      "outlines": 2430,
      "concerning": 2431,
      "browsers": 2432,
      "dashboard": 2433,
      "properties": 2434,
      "challenging": 2435,
      "docker": 2436,
      "kinesis": 2437,
      "licens": 2438,
      "m6g": 2439,
      "merchant": 2440,
      "made": 2441,
      "mariadb": 2442,
      "mechanis": 2443,
      "python": 2444,
      "ruby": 2445,
      "sivasub": 2446,
      "turn": 2447,
      "ubnet": 2448,
      "vetted": 2449,
      "vogels": 2450,
      "##cape": 2451,
      "##onlyinternetgateway": 2452,
      "anonymous": 2453,
      "datasets": 2454,
      "products": 2455,
      "debugging": 2456,
      "extens": 2457,
      "separ": 2458,
      "beanstalk": 2459,
      "princi": 2460,
      "spikes": 2461,
      "workflows": 2462,
      "looking": 2463,
      "cryptographically": 2464,
      "maintenance": 2465,
      "songtitle": 2466,
      "acknowledg": 2467,
      "enterprise": 2468,
      "nosql": 2469,
      "##leneck": 2470,
      "12": 2471,
      "15": 2472,
      "25": 2473,
      "26": 2474,
      "3m": 2475,
      "ast": 2476,
      "bet": 2477,
      "batch": 2478,
      "bound": 2479,
      "core": 2480,
      "cross": 2481,
      "cause": 2482,
      "cto": 2483,
      "dig": 2484,
      "dive": 2485,
      "days": 2486,
      "eks": 2487,
      "fa": 2488,
      "fer": 2489,
      "fine": 2490,
      "five": 2491,
      "ftp": 2492,
      "fms": 2493,
      "gain": 2494,
      "hat": 2495,
      "here": 2496,
      "hype": 2497,
      "ig": 2498,
      "ist": 2499,
      "ios": 2500,
      "igh": 2501,
      "led": 2502,
      "lens": 2503,
      "lsis": 2504,
      "mb": 2505,
      "my": 2506,
      "map": 2507,
      "nor": 2508,
      "sum": 2509,
      "sns": 2510,
      "snow": 2511,
      "synchron": 2512,
      "synchronous": 2513,
      "sizes": 2514,
      "te": 2515,
      "tab": 2516,
      "tries": 2517,
      "ul": 2518,
      "ud": 2519,
      "vm": 2520,
      "vis": 2521,
      "vary": 2522,
      "yst": 2523,
      "york": 2524,
      "##io": 2525,
      "##ious": 2526,
      "##cated": 2527,
      "##come": 2528,
      "##aws": 2529,
      "##ave": 2530,
      "##ler": 2531,
      "##late": 2532,
      "##line": 2533,
      "##red": 2534,
      "##ril": 2535,
      "##rily": 2536,
      "##eat": 2537,
      "##eet": 2538,
      "##fely": 2539,
      "##flowlogs": 2540,
      "##nition": 2541,
      "##sible": 2542,
      "##session": 2543,
      "##tle": 2544,
      "##type": 2545,
      "##tleneck": 2546,
      "##ots": 2547,
      "##over": 2548,
      "##oves": 2549,
      "##vent": 2550,
      "##gether": 2551,
      "##day": 2552,
      "##duty": 2553,
      "##yle": 2554,
      "##pt": 2555,
      "##pection": 2556,
      "##hod": 2557,
      "##host": 2558,
      "##horized": 2559,
      "##wick": 2560,
      "##one": 2561,
      "##atform": 2562,
      "##atives": 2563,
      "##ered": 2564,
      "##erts": 2565,
      "##ories": 2566,
      "##ink": 2567,
      "think": 2568,
      "##ingress": 2569,
      "##icates": 2570,
      "##icious": 2571,
      "ant": 2572,
      "ang": 2573,
      "##eness": 2574,
      "##enatgateway": 2575,
      "##etype": 2576,
      "##edes": 2577,
      "##edom": 2578,
      "toler": 2579,
      "together": 2580,
      "today": 2581,
      "##rect": 2582,
      "##requent": 2583,
      "##recated": 2584,
      "amazonaws": 2585,
      "##ece": 2586,
      "##rope": 2587,
      "##plify": 2588,
      "##ark": 2589,
      "##ards": 2590,
      "rep": 2591,
      "rehost": 2592,
      "##entially": 2593,
      "##ami": 2594,
      "##omic": 2595,
      "##ilitate": 2596,
      "##abyte": 2597,
      "usd": 2598,
      "constrained": 2599,
      "##eless": 2600,
      "stays": 2601,
      "style": 2602,
      "##idly": 2603,
      "ach": 2604,
      "accept": 2605,
      "##ison": 2606,
      "##isperer": 2607,
      "##ceed": 2608,
      "april": 2609,
      "comes": 2610,
      "##oling": 2611,
      "once": 2612,
      "online": 2613,
      "##ode": 2614,
      "reside": 2615,
      "instr": 2616,
      "enabling": 2617,
      "export": 2618,
      "exerc": 2619,
      "exceed": 2620,
      "clos": 2621,
      "##essary": 2622,
      "##ifier": 2623,
      "##izesecuritygroup": 2624,
      "##istent": 2625,
      "##istics": 2626,
      "prove": 2627,
      "chang": 2628,
      "chef": 2629,
      "cheat": 2630,
      "##units": 2631,
      "##ular": 2632,
      "##uledes": 2633,
      "always": 2634,
      "alerts": 2635,
      "objective": 2636,
      "##ocations": 2637,
      "lex": 2638,
      "leading": 2639,
      "leave": 2640,
      "ates": 2641,
      "atomic": 2642,
      "creation": 2643,
      "##osed": 2644,
      "##ope": 2645,
      "byo": 2646,
      "unint": 2647,
      "##porary": 2648,
      "compare": 2649,
      "consume": 2650,
      "clouds": 2651,
      "secured": 2652,
      "commerc": 2653,
      "intern": 2654,
      "getmanagedprefixlist": 2655,
      "keytype": 2656,
      "modules": 2657,
      "##loads": 2658,
      "around": 2659,
      "spe": 2660,
      "spot": 2661,
      "spend": 2662,
      "space": 2663,
      "spark": 2664,
      "descrip": 2665,
      "scales": 2666,
      "fees": 2667,
      "##figured": 2668,
      "basis": 2669,
      "##ivalent": 2670,
      "configures": 2671,
      "deploying": 2672,
      "short": 2673,
      "sheet": 2674,
      "##ationship": 2675,
      "detect": 2676,
      "learned": 2677,
      "connecting": 2678,
      "backed": 2679,
      "backend": 2680,
      "##ificantly": 2681,
      "polly": 2682,
      "runner": 2683,
      "capability": 2684,
      "needed": 2685,
      "timest": 2686,
      "controlling": 2687,
      "builder": 2688,
      "reduc": 2689,
      "significantly": 2690,
      "reading": 2691,
      "allocate": 2692,
      "automation": 2693,
      "automates": 2694,
      "supporting": 2695,
      "owns": 2696,
      "performs": 2697,
      "relationship": 2698,
      "higher": 2699,
      "prefix": 2700,
      "preced": 2701,
      "prevent": 2702,
      "##itional": 2703,
      "transaction": 2704,
      "transcribe": 2705,
      "translate": 2706,
      "describesecuritygroup": 2707,
      "billions": 2708,
      "analyst": 2709,
      "note": 2710,
      "notification": 2711,
      "prices": 2712,
      "migrating": 2713,
      "overage": 2714,
      "architecting": 2715,
      "login": 2716,
      "##ernate": 2717,
      "therefore": 2718,
      "among": 2719,
      "amplify": 2720,
      "minimize": 2721,
      "itemfile": 2722,
      "levels": 2723,
      "disable": 2724,
      "disrup": 2725,
      "##ipv": 2726,
      "##ipaddresses": 2727,
      "infrequent": 2728,
      "configuring": 2729,
      "identifier": 2730,
      "responses": 2731,
      "generating": 2732,
      "method": 2733,
      "##avy": 2734,
      "defines": 2735,
      "defined": 2736,
      "consists": 2737,
      "advocate": 2738,
      "advanced": 2739,
      "designing": 2740,
      "attributetype": 2741,
      "outgoing": 2742,
      "offload": 2743,
      "standardizing": 2744,
      "freedom": 2745,
      "deprecated": 2746,
      "goal": 2747,
      "good": 2748,
      "taking": 2749,
      "invest": 2750,
      "invocations": 2751,
      "protection": 2752,
      "centers": 2753,
      "central": 2754,
      "throughout": 2755,
      "expir": 2756,
      "exposed": 2757,
      "clustering": 2758,
      "updating": 2759,
      "location": 2760,
      "place": 2761,
      "platform": 2762,
      "solve": 2763,
      "additionally": 2764,
      "considering": 2765,
      "launching": 2766,
      "launched": 2767,
      "decreas": 2768,
      "failover": 2769,
      "recommendations": 2770,
      "become": 2771,
      "critical": 2772,
      "putobject": 2773,
      "payments": 2774,
      "payloads": 2775,
      "temporary": 2776,
      "modifys": 2777,
      "quotes": 2778,
      "authority": 2779,
      "authorization": 2780,
      "authorizesecuritygroup": 2781,
      "engineered": 2782,
      "download": 2783,
      "##ramanian": 2784,
      "inside": 2785,
      "inspection": 2786,
      "active": 2787,
      "activity": 2788,
      "maximizing": 2789,
      "limits": 2790,
      "machines": 2791,
      "packaging": 2792,
      "##cidrblock": 2793,
      "securely": 2794,
      "commonly": 2795,
      "workspaces": 2796,
      "consideration": 2797,
      "cooling": 2798,
      "retries": 2799,
      "organizations": 2800,
      "identifying": 2801,
      "distribute": 2802,
      "larger": 2803,
      "installation": 2804,
      "pattern": 2805,
      "2005": 2806,
      "advantages": 2807,
      "solution": 2808,
      "template": 2809,
      "during": 2810,
      "duration": 2811,
      "durability": 2812,
      "drive": 2813,
      "gives": 2814,
      "given": 2815,
      "routing": 2816,
      "##permission": 2817,
      "threat": 2818,
      "thread": 2819,
      "steps": 2820,
      "communication": 2821,
      "communicates": 2822,
      "simplified": 2823,
      "problems": 2824,
      "problematic": 2825,
      "individualized": 2826,
      "100": 2827,
      "clean": 2828,
      "clear": 2829,
      "green": 2830,
      "macos": 2831,
      "##okesecuritygroup": 2832,
      "keeping": 2833,
      "pathway": 2834,
      "heavy": 2835,
      "yearly": 2836,
      "##eroute": 2837,
      "scenarios": 2838,
      "powered": 2839,
      "flexibility": 2840,
      "balancer": 2841,
      "selecting": 2842,
      "puppet": 2843,
      "essential": 2844,
      "layers": 2845,
      "ssl": 2846,
      "verbs": 2847,
      "remember": 2848,
      "removes": 2849,
      "review": 2850,
      "revokesecuritygroup": 2851,
      "stateless": 2852,
      "combine": 2853,
      "combination": 2854,
      "primarily": 2855,
      "protecting": 2856,
      "protocols": 2857,
      "meeting": 2858,
      "snapshots": 2859,
      "complexity": 2860,
      "correct": 2861,
      "done": 2862,
      "oltp": 2863,
      "save": 2864,
      "safely": 2865,
      "text": 2866,
      "textract": 2867,
      "enetworkinterface": 2868,
      "graphics": 2869,
      "overwrite": 2870,
      "overwritten": 2871,
      "planning": 2872,
      "##enetworkaclentry": 2873,
      "maintaining": 2874,
      "##ubnetcidrblock": 2875,
      "##ubnetcidrreserv": 2876,
      "growing": 2877,
      "cmdlet": 2878,
      "cmdlets": 2879,
      "focuses": 2880,
      "efs": 2881,
      "locking": 2882,
      "potentially": 2883,
      "site": 2884,
      "##filterrule": 2885,
      "projected": 2886,
      "training": 2887,
      "tracking": 2888,
      "increase": 2889,
      "increased": 2890,
      "records": 2891,
      "subset": 2892,
      "involved": 2893,
      "encoding": 2894,
      "##egressonlyinternetgateway": 2895,
      "predictions": 2896,
      "categories": 2897,
      "currently": 2898,
      "deny": 2899,
      "dynamic": 2900,
      "files": 2901,
      "facilitate": 2902,
      "matches": 2903,
      "piece": 2904,
      "room": 2905,
      "roles": 2906,
      "series": 2907,
      "testing": 2908,
      "wareh": 2909,
      "format": 2910,
      "remaining": 2911,
      "starfield": 2912,
      "reserve": 2913,
      "traditional": 2914,
      "adjusting": 2915,
      "although": 2916,
      "alternatives": 2917,
      "script": 2918,
      "comparison": 2919,
      "startups": 2920,
      "monthly": 2921,
      "accidentally": 2922,
      "reliability": 2923,
      "transforming": 2924,
      "toolkits": 2925,
      "discus": 2926,
      "majority": 2927,
      "governance": 2928,
      "terminate": 2929,
      "administrative": 2930,
      "characteristics": 2931,
      "greatly": 2932,
      "intelligence": 2933,
      "below": 2934,
      "bottleneck": 2935,
      "europe": 2936,
      "equivalent": 2937,
      "egress": 2938,
      "fetch": 2939,
      "fargate": 2940,
      "garnet": 2941,
      "geograph": 2942,
      "hibernate": 2943,
      "kinds": 2944,
      "kernels": 2945,
      "little": 2946,
      "landscape": 2947,
      "malicious": 2948,
      "march": 2949,
      "millions": 2950,
      "necessary": 2951,
      "petabyte": 2952,
      "persistent": 2953,
      "possible": 2954,
      "rapidly": 2955,
      "swami": 2956,
      "split": 2957,
      "sections": 2958,
      "savings": 2959,
      "tedious": 2960,
      "wins": 2961,
      "welcome": 2962,
      "wizard": 2963,
      "werner": 2964,
      "yaml": 2965,
      "zero": 2966,
      "##networkinterface": 2967,
      "android": 2968,
      "rekognition": 2969,
      "procedures": 2970,
      "economics": 2971,
      "resembles": 2972,
      "aspects": 2973,
      "chapter": 2974,
      "opsworks": 2975,
      "adopt": 2976,
      "abstraction": 2977,
      "guardduty": 2978,
      "unassign": 2979,
      "unauthorized": 2980,
      "cloudtrail": 2981,
      "incidental": 2982,
      "explicitly": 2983,
      "redundancy": 2984,
      "preconfigured": 2985,
      "codewhisperer": 2986,
      "submitting": 2987,
      "concurrency": 2988,
      "democratizing": 2989,
      "aggreg": 2990,
      "awsdynamodbdelete": 2991,
      "updatesecuritygroupruledes": 2992,
      "bandwidth": 2993,
      "materials": 2994,
      "exclusively": 2995,
      "licenses": 2996,
      "mechanism": 2997,
      "sivasubramanian": 2998,
      "ubnetcidr": 2999,
      "separate": 3000,
      "principles": 3001,
      "exercise": 3002,
      "closely": 3003,
      "unintended": 3004,
      "commercial": 3005,
      "description": 3006,
      "analysts": 3007,
      "decreases": 3008,
      "bl": 3009,
      "bo": 3010,
      "ce": 3011,
      "crib": 3012,
      "cum": 3013,
      "cep": 3014,
      "crip": 3015,
      "der": 3016,
      "duc": 3017,
      "ep": 3018,
      "eri": 3019,
      "fig": 3020,
      "field": 3021,
      "ir": 3022,
      "ie": 3023,
      "ib": 3024,
      "ion": 3025,
      "ire": 3026,
      "ly": 3027,
      "ms": 3028,
      "ou": 3029,
      "ot": 3030,
      "ok": 3031,
      "ore": 3032,
      "pe": 3033,
      "ram": 3034,
      "ros": 3035,
      "rib": 3036,
      "rule": 3037,
      "tl": 3038,
      "tt": 3039,
      "tit": 3040,
      "um": 3041,
      "watch": 3042,
      "ys": 3043,
      "yp": 3044,
      "##ience": 3045,
      "##cu": 3046,
      "##rete": 3047,
      "##ey": 3048,
      "##fic": 3049,
      "##fers": 3050,
      "##name": 3051,
      "##nown": 3052,
      "##br": 3053,
      "##uary": 3054,
      "##ters": 3055,
      "##target": 3056,
      "##qs": 3057,
      "##vate": 3058,
      "##get": 3059,
      "##db": 3060,
      "##ding": 3061,
      "##ytes": 3062,
      "##pri": 3063,
      "##ward": 3064,
      "##6addresses": 3065,
      "##eswick": 3066,
      "##ateroutetable": 3067,
      "##ors": 3068,
      "##init": 3069,
      "##ants": 3070,
      "##ional": 3071,
      "##icks": 3072,
      "##icating": 3073,
      "ing": 3074,
      "##stream": 3075,
      "##ences": 3076,
      "##mal": 3077,
      "reas": 3078,
      "##acks": 3079,
      "cond": 3080,
      "##elf": 3081,
      "##iding": 3082,
      "acity": 3083,
      "come": 3084,
      "ecuritygroup": 3085,
      "ends": 3086,
      "close": 3087,
      "##essions": 3088,
      "##izable": 3089,
      "##emanagedprefixlist": 3090,
      "vpcpeeringconnect": 3091,
      "ations": 3092,
      "abl": 3093,
      "unk": 3094,
      "units": 3095,
      "##porate": 3096,
      "##ived": 3097,
      "##iveness": 3098,
      "ific": 3099,
      "deletenetworkinterface": 3100,
      "##atesubnetcidrblock": 3101,
      "##udio": 3102,
      "intended": 3103,
      "ide": 3104,
      "ern": 3105,
      "erv": 3106,
      "describenetworkinterface": 3107,
      "##acityunits": 3108,
      "modifyvpc": 3109,
      "##vpccidrblock": 3110,
      "ential": 3111,
      "urr": 3112,
      "createnetworkinterface": 3113,
      "port": 3114,
      "ill": 3115,
      "very": 3116,
      "describevpc": 3117,
      "enetworkacl": 3118,
      "createdef": 3119,
      "##association": 3120,
      "miss": 3121,
      "mission": 3122,
      "potential": 3123,
      "ynam": 3124,
      "ynchron": 3125,
      "##criptions": 3126,
      "ffic": 3127,
      "##ipv6addresses": 3128,
      "##ubnetcidrreservation": 3129,
      "warehous": 3130,
      "discuss": 3131,
      "updatesecuritygroupruledescriptions": 3132,
      "ubnetcidrreserv": 3133,
      "##vateipaddresses": 3134,
      "##privateipaddresses": 3135
    }
  }
}